cd
13
fa
20
99
ee
9e
01
d7
e0
fa
13
b8
fe
da
de
d1
eb
f1
36
81
ea
b2
ff
e4
c4
ed
1e
9d
f9
95
e6
91
ae
d3
de
af
bc
90
18
b8
cc
e3
18
9b
ee
ab
1b
c1
f6
cd
d7
a4
f2
81
04
cf
e2
d3
de
a3
d0
bd
cc
d0
e6
cd
db
b5
1f
c7
e6
f6
22
03
05
02
4a
de
0e
cf
cf
f4
f7
05
20
d5
00
0d
a4
c9
21
ab
0b
e9
4b
fb
15
e9
1f
15
f9
f1
f1
eb
1c
15
13
64
2e
c9
ce
b9
e1
e9
23
4a
3b
81
27
0d
00
12
0a
ed
e6
f1
13
ed
04
ec
21
59
ee
2c
10
ac
34
5e
33
77
21
ad
14
f8
f2
fa
10
22
29
16
0c
d6
18
0c
1f
f4
0c
17
1d
f7
2b
d8
06
f5
f2
be
7f
fe
fb
e7
16
17
27
df
c5
4e
0e
d2
25
da
0c
d0
eb
09
df
ce
13
eb
f8
e6
f2
26
ce
d5
f2
17
0d
cc
a9
ef
e6
d8
f2
02
f2
ff
e3
e1
f0
ea
e4
09
f9
0b
da
e1
15
05
38
c7
02
d5
7f
19
10
de
2e
cc
00
c0
34
f8
1c
fc
18
fe
18
ca
1a
df
24
07
f7
04
f5
f5
17
fe
01
d0
08
0f
1a
c7
46
06
0b
f6
37
0e
0d
01
23
d9
ed
0d
0d
0f
07
ef
f0
25
f9
02
08
ff
04
e7
da
04
07
fb
f5
fd
1e
ea
1b
