e9
23
6a
fb
08
ce
5c
c5
81
25
36
0c
ba
ee
37
5e
d8
0b
07
fb
fb
fd
f5
32
c2
de
2d
fe
19
e3
54
b5
84
e2
08
dd
d8
e0
0f
46
a7
d6
f3
f1
0f
db
fd
13
a9
e0
41
08
ef
06
11
b4
c0
02
10
18
3b
08
f2
b9
ef
e7
15
d3
d7
04
d8
0b
c5
f0
0b
f8
e5
05
0e
ff
e4
fd
06
f5
f1
d7
1a
3f
c6
c5
d8
bb
c8
cf
ee
ee
e2
08
06
08
fc
04
fe
da
fe
d5
e9
2e
29
50
ea
d6
c5
13
1e
4a
f3
39
1d
bb
0e
25
96
1a
3f
ec
de
e1
7f
f5
bf
2a
25
2c
d1
c2
6b
21
f9
1c
f3
23
e0
11
c0
f1
f2
db
81
ed
cf
de
d9
1d
d3
32
c6
f0
bb
ca
ba
ee
c8
0f
bc
02
f1
f2
d3
12
d4
f6
8c
db
c8
18
d3
e9
fd
f1
b6
fa
b6
1d
d9
00
d6
f8
a8
e0
b3
28
d7
f5
dc
e4
b1
1e
9a
f3
e5
09
c6
d2
b5
ec
a0
de
cf
f7
d4
f6
b1
09
e7
fd
ac
07
c7
f3
b5
03
ae
03
c8
0a
de
f0
e7
06
bc
e4
ca
26
c6
fb
c3
f0
af
29
b7
d9
d4
05
b3
e8
ab
16
a2
ef
d0
ca
b3
f2
b7
0a
bf
16
d3
02
9d
05
a1
de
b4
13
c4
1f
81
e0
d2
d1
c2
ec
f2
10
c0
f2
9a
e1
c5
1e
df
da
a6
ca
b3
ea
