25
1b
f8
f9
17
f9
f9
01
1f
19
01
05
00
eb
ff
fe
2b
29
f1
0b
11
01
e6
fb
23
13
16
f5
f8
02
fb
03
1b
1a
e4
02
19
00
fd
f5
19
2a
0d
08
ee
03
04
e6
20
26
f8
00
0f
03
03
1a
1e
11
0a
05
04
07
14
d8
27
24
f0
07
18
fd
fa
1d
29
0d
09
0b
03
09
03
e8
2d
33
fe
04
12
15
ff
01
1c
0d
10
ee
0f
06
10
f9
1d
1a
00
00
14
08
e6
f9
22
fe
0b
f2
f2
0a
00
fa
21
19
fa
0f
1e
10
ec
1b
18
00
ff
f8
ff
00
0d
ed
18
24
f4
fe
0b
11
11
3a
2d
0b
08
11
fe
f5
03
06
16
36
0a
f9
1f
0d
0d
33
2d
08
01
fc
f9
0c
f9
11
29
34
13
09
12
0a
f8
0d
38
03
03
fa
0e
02
01
f0
29
1f
11
06
1e
09
d1
0a
2c
0e
fe
d9
fe
13
f9
15
2d
1f
14
09
22
02
ca
04
25
04
0c
01
d8
0a
14
2b
25
23
00
00
07
16
d8
f7
24
f5
02
f4
f5
f5
e1
e0
35
19
18
0c
29
1b
05
0f
2e
01
f9
05
f5
03
ed
e1
22
3e
1f
10
17
0a
f4
fb
1d
07
04
10
f7
08
f0
f7
26
26
23
01
07
17
f4
16
22
11
fd
eb
04
30
1c
2d
19
26
14
fc
11
0b
f8
f9
0c
f7
04
e6
0a
14
0f
07
1b
29
02
09
23
00
f8
bf
22
12
00
0b
0c
fa
f6
81
2d
1f
00
16
1e
05
f4
fa
2c
0c
08
37
07
1d
f1
0c
2d
1a
0e
09
27
fd
f9
0b
2a
10
0b
fa
fd
f4
05
f2
30
15
1b
0b
2a
0d
0e
13
3b
07
f6
f8
0b
fe
fc
03
0e
26
14
07
19
06
20
21
23
1d
ff
1e
ff
02
fb
11
1e
18
f4
1c
1a
fd
18
d2
1e
0c
1c
23
fb
0a
fa
ec
16
2a
e4
07
2b
1b
f5
eb
1f
0d
ff
28
0d
07
fb
11
9d
92
02
fe
d2
01
07
07
b2
d5
05
f4
f6
02
00
04
a5
8b
04
fd
d6
ee
0b
0a
ac
de
03
f5
05
fe
00
fb
a8
a2
2a
ff
d3
f2
e3
fe
a4
d5
f4
fd
01
fb
f0
00
b6
98
15
00
cf
ec
ca
e7
b0
d4
ef
ea
f8
fb
dd
14
a8
97
04
06
cd
f2
e8
f9
aa
c6
f5
fb
fb
00
de
ef
a7
8e
fa
f3
cb
e9
01
09
b0
eb
01
f2
f3
fa
fa
01
b0
9b
ed
f6
cb
e2
05
09
8b
db
fa
ef
11
fe
02
01
b2
9f
fe
fa
b6
c9
ed
02
a2
e1
e1
e9
10
f7
dc
e9
bf
a6
0e
fa
c5
bc
d6
de
aa
ea
03
ca
02
f6
fa
ed
a6
98
10
02
c4
d9
f7
f3
ac
cb
ef
e7
00
dd
ce
10
a2
8e
03
f7
ce
f4
0a
00
9b
e4
fa
ef
f8
fd
f8
07
a0
95
ed
e9
b9
da
fe
e9
8c
e8
f4
e5
07
f0
ef
f6
a8
a2
fc
fe
b8
c4
de
f2
b4
e9
f0
dd
19
e2
da
d4
b9
a5
16
f2
ce
db
e2
ee
9c
e7
f0
de
f1
e4
eb
40
b6
8a
f9
05
c9
d6
f0
fc
af
e2
eb
f5
07
dd
d2
ef
9f
81
f9
fc
cc
f5
0e
f1
9e
e2
03
fb
fb
04
f6
ff
9f
97
f6
f4
c0
e9
f1
e1
99
e7
01
ea
10
f5
f2
f6
b0
9a
11
02
c7
cb
e1
f6
ac
f9
f8
e3
fe
f4
fa
f3
ae
aa
22
f1
bf
d3
03
f7
a3
f0
01
db
04
ee
f0
41
a8
86
f1
fd
b6
d5
13
f6
b2
dc
f6
ea
00
db
dc
d8
a9
98
fc
f1
cd
eb
28
ee
a9
e8
f3
ee
0d
f5
f9
0a
9d
90
f9
04
c4
de
05
d6
a6
ef
08
00
10
02
f7
06
aa
9b
12
eb
c7
d8
03
ee
a2
df
f3
e8
f5
f2
eb
08
a9
94
12
f7
b6
c9
24
19
ab
df
ec
f0
0f
e2
ef
18
a6
86
05
fb
c7
dd
21
0e
ae
da
01
08
01
e9
dd
fb
17
2d
0c
06
1a
f4
16
f5
27
00
0e
00
1c
02
28
03
1f
30
ef
08
14
01
27
0c
40
15
28
24
07
03
08
ff
1a
2a
db
00
20
03
0f
2d
3f
1d
2e
2d
ee
10
29
0e
18
25
00
06
15
0e
16
4a
5a
17
1b
20
08
0b
0b
fc
2f
27
e8
06
34
ef
dd
36
14
05
2c
de
05
fb
39
f8
30
29
ea
18
21
fd
06
d1
2c
14
ff
17
08
e9
16
fa
3f
23
e9
18
29
0f
32
d3
4a
fb
13
29
1e
ed
2c
ee
41
2d
e1
10
26
18
33
17
1f
0f
03
3d
05
fd
08
ef
3a
3b
0f
f7
1f
0b
fa
1a
3a
15
14
fe
f5
0a
18
c3
39
25
06
04
31
f9
c0
04
2b
fc
18
f5
f7
26
32
bc
18
18
e1
fe
00
08
00
c4
11
15
09
22
15
f7
16
f2
36
34
c1
fc
1f
02
25
e2
28
07
0a
44
de
00
22
c9
49
3e
c9
19
07
09
13
e4
41
02
03
0f
d7
03
03
8c
2e
1c
ec
24
1e
ec
dd
c2
34
2f
11
e6
e2
f9
1c
a6
3f
3d
2a
0b
21
05
34
cf
1b
06
f3
e6
16
f8
20
dc
4f
33
f1
16
22
f7
fb
05
24
f6
0c
05
f1
13
17
15
23
11
02
ef
2b
fe
ee
ec
27
0a
19
1f
0b
02
08
46
06
12
25
22
12
f7
f2
17
30
0a
25
2d
09
08
15
45
16
20
d8
09
15
0c
fb
15
34
0f
17
0e
1e
1d
2c
05
17
4b
0d
11
43
01
70
ef
2e
0e
08
32
39
06
23
1b
27
39
0a
24
21
16
eb
fb
3e
00
11
20
01
f9
0c
1d
33
25
24
14
1b
11
f5
f9
3f
0b
20
29
0e
0b
17
3c
1b
42
12
ee
24
13
fc
17
29
fb
09
2d
06
0e
10
7f
20
2a
db
18
31
06
42
35
37
01
0b
09
e8
17
12
09
3e
2b
db
f2
39
07
75
1a
48
f1
19
23
07
0b
33
01
1f
1d
e2
fd
08
f3
2d
0e
11
04
03
03
12
f4
fd
09
20
2c
f8
f4
1c
f1
4e
fc
25
02
04
07
fd
fd
fd
08
32
2d
05
fc
18
f2
5b
24
25
09
06
fe
02
00
1a
08
0a
3b
fc
07
19
fd
0b
30
29
17
0b
e2
04
00
1c
0f
2c
35
fa
11
0e
01
d4
1d
2f
24
0f
cf
f0
07
1c
0e
26
22
f5
19
1d
06
2a
d1
2d
11
08
12
fe
f1
11
29
2b
2c
d7
0f
0b
14
19
c0
33
09
0e
34
19
ec
06
1d
3b
28
c9
0b
1b
00
1a
ee
3c
fd
fc
1e
30
f0
0d
03
19
11
e6
03
20
11
00
26
43
15
fa
06
07
0f
15
0d
1d
30
f3
08
2a
10
c3
00
12
0a
0e
ef
ef
1e
29
08
23
22
ea
fa
13
f3
f2
cd
1b
fd
06
17
03
17
0b
fc
35
26
ef
13
33
15
dc
b9
3d
1c
15
25
10
10
19
d6
16
40
e2
1f
1b
01
15
ec
33
08
12
41
2f
fe
07
fd
1f
1e
f9
06
26
07
23
32
11
25
05
5c
23
14
12
7f
21
32
e9
f6
04
02
db
fd
1c
1a
0c
0c
ee
0e
22
2a
29
2c
ed
07
fc
fa
0b
23
38
0a
16
f9
e8
0b
15
f0
3e
2b
bf
17
33
07
fc
f3
2c
0b
09
0e
eb
fe
25
9c
21
27
f7
0c
1a
1b
09
45
26
0d
14
64
f9
f3
1e
dc
38
34
fa
0b
1d
24
0e
33
38
07
f0
2f
e8
fd
0b
02
1f
29
df
02
22
f8
c9
1a
11
09
1b
d5
dc
1d
20
d3
26
21
d4
0b
0b
f8
1b
1c
30
ff
f9
f2
e5
f1
13
05
20
2b
e4
06
1f
f6
15
08
39
09
0a
03
fc
05
1e
cd
1c
2f
a9
12
21
0c
0e
f9
36
08
2b
1a
24
f4
0a
b6
15
22
db
0c
22
0c
ea
00
3c
0e
25
1a
04
f9
1f
d9
36
2c
ed
fc
29
12
c1
f1
35
10
f9
f2
08
11
10
14
03
eb
f6
04
fd
f0
fd
18
06
ea
01
fa
13
04
1a
0c
0f
d7
0b
f8
05
fd
d9
0b
d6
ef
14
fa
f8
fa
29
07
f2
fb
20
fe
f9
fd
81
fa
f1
08
ff
06
e3
1a
22
c8
03
d9
21
08
f8
ec
86
c6
ff
ec
00
ed
d8
16
08
fa
08
f6
1d
f1
0d
00
f2
e8
f7
ed
13
10
f4
f4
00
f5
e6
ca
07
15
f8
03
fd
16
0b
f3
0d
00
ed
1a
26
1a
f3
fc
25
fa
07
07
bb
10
fc
fe
03
e2
ef
0c
11
e4
02
f8
4c
fe
eb
f3
b5
de
00
0e
1d
ca
f4
0f
32
d6
03
e2
39
08
fd
f1
a8
dc
fe
0b
f6
e4
e2
d9
08
c8
15
f2
32
06
e1
f3
d2
cf
f8
e4
0e
12
ea
ed
2d
49
fe
e0
0c
ed
01
fd
03
0b
00
f7
00
de
07
00
10
f4
0c
f5
01
e3
0e
fb
4b
22
e7
fd
11
16
13
f4
0c
26
f5
f1
05
06
da
f5
4c
11
f5
0c
11
fb
fc
f9
25
3f
10
ed
22
08
16
fe
17
ef
0f
09
12
dd
f6
f4
21
99
05
e4
22
eb
f9
03
16
d4
fb
03
19
01
07
0a
0c
3c
04
ea
ee
02
11
08
21
0b
02
e4
35
09
0f
05
15
0b
13
fd
fd
01
f5
08
1b
1f
0a
ed
f6
32
f5
f6
1a
35
fa
11
f6
01
07
fa
3d
f8
16
0b
16
f9
ed
11
ff
1c
fb
f3
f0
fa
08
f3
2f
ef
11
f8
05
10
0a
fd
04
21
f6
00
20
08
f1
f4
24
e9
e4
f1
11
f3
0c
fb
10
72
05
ea
fe
02
f6
fc
e1
ef
03
01
08
04
06
f9
14
19
0c
0c
0a
f8
03
0f
db
f1
e5
fe
00
ee
21
e4
18
f2
01
fb
07
23
f8
e7
c1
df
ec
f0
f6
af
e6
f9
fa
12
03
e3
2e
08
f5
ed
12
f7
ef
fa
f9
ae
ea
01
1c
26
f4
e7
14
01
f5
ef
37
23
f0
e5
05
de
0b
0c
19
1b
15
0f
fd
f6
13
09
de
f8
1b
01
15
1a
01
03
ff
fe
11
1e
01
07
0b
00
d7
0e
17
f4
fb
fb
f4
f9
0d
18
24
12
0c
00
06
00
1a
c1
f8
0e
03
09
05
f3
26
17
0b
1b
19
fa
09
06
46
bf
0c
fd
15
32
2b
13
23
2e
1f
15
eb
0c
00
04
22
a4
15
22
1c
21
33
fd
1b
21
12
13
0d
16
1b
08
d4
19
10
10
13
f0
fc
fe
23
f4
20
0b
1f
02
0b
18
f1
30
16
fd
01
f1
dd
0d
f9
28
25
1e
07
f5
1d
16
05
f8
2b
fb
21
23
f9
12
13
41
2d
0c
e0
09
0e
17
3d
f5
1f
10
09
73
ff
09
10
2a
25
1e
f1
fe
29
01
7f
a5
23
06
0c
75
4e
f2
0e
3f
19
2b
e2
f6
31
0a
0e
0a
10
26
0d
fa
04
21
17
01
15
21
0f
0a
0f
01
1f
12
39
f8
fb
16
1a
ef
00
ec
12
13
22
fb
04
1d
0f
0c
2b
fb
0e
2b
04
12
26
f7
21
15
e2
0e
22
05
34
43
0e
fb
06
29
d6
ff
32
e0
1e
23
d7
f6
2c
fe
04
04
1c
04
13
12
f6
02
27
bb
2b
23
d0
0b
12
f9
24
0d
2b
0a
13
fb
0d
02
26
f6
26
2e
d1
ff
1b
11
14
0d
11
f2
09
30
02
ff
19
d9
35
1f
fd
e9
21
08
1d
34
0e
ff
04
33
e4
00
2b
d5
26
39
13
00
24
0e
f9
2b
1b
14
08
d7
e9
f8
19
a9
18
0f
e7
0c
09
11
e1
3b
29
fb
01
d1
d9
f9
27
8e
2f
0e
fd
f1
1b
19
0f
16
23
1d
0e
da
eb
07
22
01
2b
1d
cc
0e
21
20
32
3f
1f
27
14
21
11
00
12
de
22
16
c3
0c
2a
01
12
ff
2f
15
19
28
27
07
19
d9
29
18
e8
fe
13
f8
c2
f1
1c
17
3b
fb
16
07
12
d1
21
2b
fa
07
1e
04
d2
fc
02
01
0e
e2
f0
fa
11
fe
1d
28
12
d5
f9
09
ef
09
18
f1
f0
04
fc
f9
fe
fd
26
32
28
f7
20
f9
c0
e0
18
0d
08
17
f8
08
25
06
23
2d
09
0c
27
18
9e
a8
3a
11
fe
f7
07
fc
18
26
2d
1c
f9
18
21
f9
f6
ba
27
0f
00
0a
f2
0b
11
15
05
46
ed
f7
21
0d
2f
db
07
0f
14
3c
12
16
fd
58
23
2c
17
ff
19
fd
de
f2
17
ff
fb
f9
ed
02
f8
df
35
28
4b
02
1e
11
b2
d3
21
02
19
ea
e7
ef
0d
05
0e
07
00
fe
03
1e
b4
81
2c
10
0d
e3
bc
04
09
e3
21
23
dd
f7
05
f6
f4
a8
1c
01
ff
30
f6
14
20
03
02
09
d8
00
f7
20
21
f3
25
1a
fe
2f
cf
f9
ed
ca
10
07
37
05
1b
01
d6
0a
14
0f
0b
ec
e6
fa
08
d5
19
21
26
1e
1b
fd
83
f3
2d
13
0b
c4
fb
fe
f1
01
16
10
02
15
16
0a
fa
ee
2a
06
ed
da
cb
3b
0b
29
2c
27
c0
fc
15
ff
3f
32
32
17
ed
fd
e5
04
01
e3
38
29
ad
ff
fe
11
1e
5d
1d
2f
13
ff
dc
f8
0d
86
03
1d
0c
17
ff
11
e8
1b
03
08
e8
f9
f6
0e
03
ee
1e
1c
0e
0d
04
0e
cd
37
45
f2
f9
de
f5
01
fc
ff
1c
0d
41
0c
1b
30
ff
2e
04
14
03
d1
fd
1c
14
36
01
08
21
21
1c
21
0f
3b
2f
f9
00
0b
33
04
12
2a
30
0f
ea
fd
1d
00
e3
0d
2a
1f
06
2f
05
0b
0a
09
0d
24
ea
0f
24
fe
c3
13
1b
10
fa
f5
02
fc
f6
ff
3c
0e
19
15
14
24
fa
32
2b
fb
06
14
ee
fe
12
ee
07
22
fe
0e
09
13
3b
34
3d
f3
ea
5f
08
08
ff
34
0e
32
f0
f9
33
33
11
02
24
03
05
5e
0c
13
0c
24
16
3b
f4
f8
2f
1a
f3
11
0e
f8
f0
33
03
12
0c
3c
31
34
10
fb
17
ff
4a
31
2f
16
11
02
d7
07
0d
f5
2f
47
f3
19
1f
ec
40
2f
2a
09
e5
f2
14
1b
22
f6
29
2a
fe
f0
00
da
63
0c
27
ee
f7
0c
07
ff
1e
ea
25
45
03
f5
11
e3
2c
15
1b
04
e5
0f
fd
fd
12
dd
30
48
fd
03
17
f6
db
e5
25
28
0b
e6
f7
ee
08
e8
44
4d
0a
fa
30
fc
3f
53
5d
1b
0d
02
f4
f5
06
0d
15
17
16
f9
31
f2
56
33
32
29
15
40
0a
fe
06
ef
22
18
f0
09
2b
10
7f
2a
22
31
2d
58
fc
00
15
e3
0e
20
13
17
2b
00
28
3b
3d
15
0c
ec
03
07
26
c3
27
18
fa
16
0f
03
ea
12
08
40
26
f2
e5
19
4e
11
5d
36
f9
0f
11
f7
12
ce
3d
24
1b
18
1e
f7
1e
23
42
48
ff
f3
1c
02
0c
dd
35
f9
04
34
35
fe
1a
d1
34
5a
0b
04
11
2a
e0
ad
39
08
f8
29
0c
ea
2c
03
30
2b
7e
f4
10
27
5f
e6
3f
03
01
1a
21
ff
06
1c
46
63
22
e8
1e
05
fc
15
0d
07
16
04
0d
20
19
76
23
40
07
f8
1c
15
f5
d8
46
08
1e
3a
19
fe
14
1e
3a
32
28
fb
3c
0d
0c
e8
2e
fd
f4
3d
15
14
0d
05
29
4f
d9
06
08
f9
d7
e1
38
fc
f4
90
fd
f4
11
c3
39
21
11
17
14
14
33
a1
44
19
fe
de
25
42
1f
fc
2a
58
49
fb
20
02
24
ca
36
26
f4
1e
2b
21
14
65
24
3a
0a
ea
13
14
eb
eb
23
2b
0a
e7
1b
05
f6
f4
23
2c
fe
ee
17
e9
9c
ac
22
12
00
eb
f7
0a
2c
da
49
2d
06
f8
14
00
a9
cc
4d
1f
09
96
a3
e6
03
e3
20
37
33
08
1c
11
b1
08
3c
20
00
bc
ef
31
3f
3d
46
40
04
0d
ff
13
d4
e0
10
0a
15
e8
e2
17
25
3a
4a
79
ff
fc
42
fb
f4
f3
54
1c
f7
03
01
2d
dc
0a
51
48
c3
19
29
2b
d5
cd
5c
1a
0a
d5
11
fe
fd
f5
59
30
e5
fe
34
08
08
f7
7f
13
0b
f8
17
f8
11
ce
1d
3b
e1
14
44
f0
43
27
34
3b
15
f5
ea
02
1f
f0
4d
2e
f8
0b
1a
e5
1a
e7
37
2f
1a
f6
16
f8
18
03
4d
43
fd
11
24
00
25
17
3c
12
25
02
eb
04
0d
d4
5b
4a
f6
1d
3f
20
eb
33
6d
14
0c
ff
e9
ff
0d
26
3a
69
17
fa
3e
13
07
3e
59
fa
21
d9
cc
f2
f3
56
31
61
02
26
2e
29
2d
00
43
1e
f8
f5
d5
14
f7
35
3f
4a
f5
17
66
27
03
23
5a
12
01
05
0b
15
0b
ca
4e
3b
16
17
2d
1b
26
26
42
14
1b
12
f4
14
f9
16
60
7b
fc
1b
22
00
19
7a
51
e4
1c
d3
a6
fb
fa
3e
50
3d
00
28
2e
18
e0
4a
6b
19
0d
d3
b3
0f
18
de
45
32
f3
26
3e
17
10
04
36
1c
14
47
38
25
14
fd
53
5d
e1
0b
38
1c
13
e6
3b
2f
12
4f
25
04
1f
64
1a
50
fe
1a
16
ee
f8
c9
50
fd
0f
01
e3
0e
f1
f7
4a
67
fd
06
2e
18
db
09
63
1e
0a
c1
ff
e8
e2
fe
5f
3c
00
2b
62
2f
d5
29
56
eb
1e
e0
d9
13
0c
0b
50
39
c4
18
46
1f
01
51
65
1b
16
47
f6
24
2c
64
4f
43
db
ea
25
f4
cf
26
3f
25
18
05
e8
16
12
e2
47
51
0e
07
5f
03
da
24
6e
09
0f
1a
04
e9
03
e6
54
45
3f
12
30
f3
26
fc
70
17
21
f2
cd
0f
fb
77
55
5a
48
f5
48
36
3b
3c
67
1b
17
00
08
1a
0b
2f
57
55
fb
10
43
0c
ef
f9
4c
25
2c
18
f3
03
1c
9f
45
6b
f9
12
28
fa
f9
db
41
1e
24
e4
16
fb
04
a1
a8
d0
06
00
e3
f8
fd
e5
b0
0d
be
11
f7
fc
a8
fe
9c
c4
f9
08
d3
fd
00
cb
9f
11
bb
fb
0a
fe
ab
13
a5
d3
e0
e2
b0
0a
1e
24
93
04
af
f0
fa
07
95
ea
ba
d0
e2
f7
c4
e6
2c
2d
ad
e8
b2
ef
0c
ec
94
da
98
d4
ec
ea
c2
fa
0c
f7
bb
d7
ab
e0
1d
e8
97
db
af
d3
0a
ec
cc
f6
fb
dc
c1
16
c6
f5
eb
03
b8
fd
ab
c1
ef
da
bf
16
07
ec
b2
02
be
e3
eb
02
bb
2c
a7
c4
07
dc
bc
0b
35
23
90
f9
d7
fe
ff
fd
d7
50
b1
c5
e8
e2
9b
ec
03
2f
92
ef
b1
fd
03
e5
ae
3e
b8
c2
e8
ec
b2
0c
ef
32
b0
04
c9
e4
e1
ca
95
fe
b0
e3
29
f4
c4
19
f8
14
b5
09
c0
ef
ea
fe
b1
1e
95
d1
0a
f4
a9
10
46
1e
98
f0
dc
de
ca
f0
ab
52
9e
bb
29
e0
ad
ff
59
16
90
e9
c7
26
41
df
c2
2e
aa
bc
fc
be
a7
08
b0
17
ba
e0
cc
e7
18
d9
95
18
81
c6
e4
e3
b2
20
ac
fc
b2
f3
da
d6
e9
d3
ac
18
96
d9
06
ed
d1
e7
04
1a
c4
07
ce
f1
ee
fe
b0
fc
96
c6
16
dc
d7
08
56
0a
8b
fa
b9
e8
08
e3
bd
00
aa
e1
c7
cd
b6
10
1e
cb
ae
cd
d7
40
23
e8
a7
f2
b2
d3
0b
d6
b1
01
a9
cf
b9
f9
c3
eb
25
e0
a7
eb
b4
c2
0d
db
aa
08
c9
d9
ac
e2
b7
da
ed
e2
9f
1a
a6
ec
e9
d7
cd
08
04
e6
b4
03
be
d8
ed
fe
b1
ea
a0
db
dd
cd
ac
eb
fc
fa
89
fd
c6
f8
f6
fa
b6
e2
b3
d7
fc
b6
9c
0d
e2
bd
8e
f1
ab
e6
c2
d4
a4
cc
a7
c4
15
e2
93
05
de
e7
99
07
a0
b3
e4
fc
ad
01
b2
ab
0b
e3
8c
09
f9
23
af
ef
ba
c1
ef
d6
b2
ac
