b7
0d
df
e9
8a
11
bd
17
fa
e3
db
ed
9c
df
b9
23
b5
16
d5
e5
a6
11
cf
d2
c6
ec
d1
e4
c0
d1
b9
cc
bb
08
c5
ee
c2
14
ec
ce
c0
f4
e6
09
b1
d4
b4
00
9d
ff
b9
eb
bb
d7
c0
f9
c5
02
d1
dc
c2
f3
e3
01
d9
14
e7
e6
81
03
b9
fc
d0
f1
e1
e6
88
01
b1
f6
c6
00
d7
e5
87
e6
ad
f9
c5
e3
c9
fb
8f
01
99
16
d5
e7
df
fe
87
09
bb
02
cc
fb
e4
fd
81
ea
a7
fb
bd
f2
ce
fb
8c
fd
ae
ee
c9
e4
d2
08
94
f8
a8
f7
d2
e2
cf
fd
8c
f4
a6
fe
c4
03
d3
e9
9e
f6
b4
f8
e9
23
6a
fb
08
ce
5c
c5
81
25
36
0c
ba
ee
37
5e
d8
0b
07
fb
fb
fd
f5
32
c2
de
2d
fe
19
e3
54
b5
84
e2
08
dd
d8
e0
0f
46
a7
d6
f3
f1
0f
db
fd
13
a9
e0
41
08
ef
06
11
b4
c0
02
10
18
3b
08
f2
b9
ef
e7
15
d3
d7
04
d8
0b
cd
13
fa
20
99
ee
9e
01
d7
e0
fa
13
b8
fe
da
de
d1
eb
f1
36
81
ea
b2
ff
e4
c4
ed
1e
9d
f9
95
e6
91
ae
d3
de
af
bc
90
18
b8
cc
e3
18
9b
ee
ab
1b
c1
f6
cd
d7
a4
f2
81
04
cf
e2
d3
de
a3
d0
bd
cc
d0
e6
cd
db
b5
1f
c7
e6
db
fe
e2
13
81
f9
d2
05
cf
f7
d9
fd
a0
16
b5
11
dc
16
ee
ff
bb
f3
ba
df
ef
dc
d2
f8
9d
1e
ae
09
c5
f9
0f
fe
ae
e7
d4
0e
ef
f8
f7
f4
a8
07
c4
d5
db
01
da
cc
c0
fd
a3
f5
f4
ec
d1
eb
ae
ed
bf
d9
c1
d9
c6
eb
c3
e0
d1
fc
e6
0d
08
05
81
d1
b1
0b
cf
01
de
e8
d6
f1
86
02
d3
0d
cb
d6
bc
15
cf
0f
cf
fc
af
ed
9c
f6
cd
15
bf
e8
cc
f5
ba
de
bc
11
e1
00
e4
26
ac
e4
b9
39
af
c9
d8
fc
a5
d1
e7
0c
c4
10
df
ea
d4
17
a7
f8
c9
f5
db
1e
c9
03
db
ed
c5
f0
0b
f8
e5
05
0e
ff
e4
fd
06
f5
f1
d7
1a
3f
c6
c5
d8
bb
c8
cf
ee
ee
e2
08
06
08
fc
04
fe
da
fe
d5
e9
2e
29
50
ea
d6
c5
13
1e
4a
f3
39
1d
bb
0e
25
96
1a
3f
ec
de
e1
7f
f5
bf
2a
25
2c
d1
c2
6b
21
f9
1c
f3
23
e0
11
f6
22
03
05
02
4a
de
0e
cf
cf
f4
f7
05
20
d5
00
0d
a4
c9
21
ab
0b
e9
4b
fb
15
e9
1f
15
f9
f1
f1
eb
1c
15
13
64
2e
c9
ce
b9
e1
e9
23
4a
3b
81
27
0d
00
12
0a
ed
e6
f1
13
ed
04
ec
21
59
ee
2c
10
ac
34
5e
33
77
21
ad
14
a2
03
ea
f2
9f
e0
8a
08
cc
e8
cb
0f
98
0e
b1
e0
cb
f9
cf
fc
ba
00
b3
d6
e5
ef
d9
11
9e
ed
b6
15
c1
dc
aa
f6
a5
ec
c0
17
ea
ed
e4
fc
c8
16
a4
dd
dd
d6
cb
ee
c0
e6
82
f3
d4
f0
c8
03
81
d6
b3
f7
cc
01
c4
f6
9b
e4
9f
f4
da
da
14
cf
30
09
f9
16
c9
1f
1b
bb
d1
00
e0
df
ae
de
0e
c1
00
c3
a0
0b
9c
43
2c
48
04
fa
a8
c4
c1
07
22
e8
eb
1a
c4
09
00
fe
bb
0a
c6
1e
f7
ef
c2
c3
c6
01
d1
0c
b6
df
ec
c1
da
78
1b
20
81
cf
ae
0c
d8
c3
fc
ec
c8
2b
c0
f1
f2
db
81
ed
cf
de
d9
1d
d3
32
c6
f0
bb
ca
ba
ee
c8
0f
bc
02
f1
f2
d3
12
d4
f6
8c
db
c8
18
d3
e9
fd
f1
b6
fa
b6
1d
d9
00
d6
f8
a8
e0
b3
28
d7
f5
dc
e4
b1
1e
9a
f3
e5
09
c6
d2
b5
ec
a0
de
cf
f7
d4
f6
b1
09
e7
fd
f8
f2
fa
10
22
29
16
0c
d6
18
0c
1f
f4
0c
17
1d
f7
2b
d8
06
f5
f2
be
7f
fe
fb
e7
16
17
27
df
c5
4e
0e
d2
25
da
0c
d0
eb
09
df
ce
13
eb
f8
e6
f2
26
ce
d5
f2
17
0d
cc
a9
ef
e6
d8
f2
02
f2
ff
e3
e1
f0
ea
e4
09
f9
0b
da
f7
f0
e5
17
04
10
e2
f9
26
01
39
f0
a7
d8
ac
36
a1
64
f1
eb
11
ba
17
a8
ac
5e
d5
c9
e6
df
17
11
ec
36
eb
1d
e2
de
fd
ec
c2
69
eb
57
32
0a
e0
23
57
bf
2c
63
f0
31
b5
85
69
4a
23
7f
83
0f
e1
f7
20
6b
b7
28
b9
bd
c3
d9
bd
e8
d6
35
cb
dc
c5
02
ea
d0
15
e6
e6
b6
aa
4d
be
dc
23
ed
ef
1a
15
09
81
b4
f1
e1
e7
00
df
18
e7
06
a8
f1
ff
32
b2
c0
dd
e1
0e
cf
c1
06
04
e7
9c
f7
b6
06
bb
f2
df
f4
d1
e2
f8
03
83
e7
cd
f5
e4
09
c5
e9
f0
eb
ab
40
ac
07
c7
f3
b5
03
ae
03
c8
0a
de
f0
e7
06
bc
e4
ca
26
c6
fb
c3
f0
af
29
b7
d9
d4
05
b3
e8
ab
16
a2
ef
d0
ca
b3
f2
b7
0a
bf
16
d3
02
9d
05
a1
de
b4
13
c4
1f
81
e0
d2
d1
c2
ec
f2
10
c0
f2
9a
e1
c5
1e
df
da
a6
ca
b3
ea
e1
15
05
38
c7
02
d5
7f
19
10
de
2e
cc
00
c0
34
f8
1c
fc
18
fe
18
ca
1a
df
24
07
f7
04
f5
f5
17
fe
01
d0
08
0f
1a
c7
46
06
0b
f6
37
0e
0d
01
23
d9
ed
0d
0d
0f
07
ef
f0
25
f9
02
08
ff
04
e7
da
04
07
fb
f5
fd
1e
ea
1b
